TRT-100100-EntropyCalibration2
images: 3bf80000
/model.0/conv/Conv_output_0: 3db934f3
/model.0/act/Sigmoid_output_0: 3c010a14
/model.0/act/Mul_output_0: 3da751ef
/model.1/conv/Conv_output_0: 3e69d978
/model.1/act/Sigmoid_output_0: 3c010a14
/model.1/act/Mul_output_0: 3e204fda
/model.2/cv1/conv/Conv_output_0: 3e44e5e1
/model.2/cv1/act/Sigmoid_output_0: 3c010a14
/model.2/cv1/act/Mul_output_0: 3da34d27
/model.22/Expand_4_output_0: 3e1d4449
/model.22/Expand_2_output_0: 3e9f4871
/model.22/Reshape_19_output_0: 3e1d4449
/model.22/Constant_56_output_0_output: 0
/model.22/Reshape_18_output_0: 3e1d4449
/model.22/Constant_42_output_0_output: 3b810a14
/model.2/Split_output_0: 3d99a9f7
/model.22/Slice_1_output_0: 3de4bf53
/model.22/dfl/Reshape_1_output_0: 3de5742f
ONNXTRT_ShapeShuffle_230_output: 3c010a14
/model.2/Split_output_1: 3d22d917
/model.2/m.0/cv1/conv/Conv_output_0: 3d991e6a
/model.2/m.0/cv1/act/Sigmoid_output_0: 3c010a14
/model.2/m.0/cv1/act/Mul_output_0: 3d648b85
/model.2/m.0/cv2/conv/Conv_output_0: 3dd4931e
/model.2/m.0/cv2/act/Sigmoid_output_0: 3c010a14
/model.2/m.0/cv2/act/Mul_output_0: 3e112980
/model.2/m.0/Add_output_0: 3de6315b
/model.2/Concat_output_0: 3dfdf353
/model.2/cv2/conv/Conv_output_0: 3dcf205d
/model.2/cv2/act/Sigmoid_output_0: 3c00d9b3
/model.2/cv2/act/Mul_output_0: 3d14de47
/model.3/conv/Conv_output_0: 3d2bf2cb
/model.3/act/Sigmoid_output_0: 3c008efd
/model.3/act/Mul_output_0: 3d01169b
/model.4/cv1/conv/Conv_output_0: 3d3a6343
/model.4/cv1/act/Sigmoid_output_0: 3c059496
/model.4/cv1/act/Mul_output_0: 3cc394c4
/model.22/Constant_38_output_0_output: 3c010a14
ONNXTRT_Broadcast_152_output: 3b810a14
/model.22/Add_8_output_0: 3e810a14
(Unnamed Layer* 463) [Constant]_output: 0
/model.22/Unsqueeze_15_output_0: 3f204a85
/model.22/Constant_41_output_0_output: 3c010a14
/model.4/Split_output_0: 3cd0ce00
/model.22/Reshape_11_output_0: 3e9f4871
ONNXTRT_Broadcast_312_output: 3b810a14
/model.22/Add_3_output_0: 3e9f4871
/model.4/Split_output_1: 3c7f17bb
/model.4/m.0/cv1/conv/Conv_output_0: 3d15e64a
/model.4/m.0/cv1/act/Sigmoid_output_0: 3bf947c2
/model.4/m.0/cv1/act/Mul_output_0: 3c91b072
/model.4/m.0/cv2/conv/Conv_output_0: 3d0d5ece
/model.4/m.0/cv2/act/Sigmoid_output_0: 3c013749
/model.4/m.0/cv2/act/Mul_output_0: 3cafbdb7
/model.4/m.0/Add_output_0: 3cfb376e
/model.4/m.1/cv1/conv/Conv_output_0: 3d1aa84e
/model.4/m.1/cv1/act/Sigmoid_output_0: 3beebf7c
/model.4/m.1/cv1/act/Mul_output_0: 3c6755df
/model.4/m.1/cv2/conv/Conv_output_0: 3d41782a
/model.4/m.1/cv2/act/Sigmoid_output_0: 3c026e4e
/model.4/m.1/cv2/act/Mul_output_0: 3d2653c2
/model.4/m.1/Add_output_0: 3d598d91
/model.4/Concat_output_0: 3d444230
/model.4/cv2/conv/Conv_output_0: 3d1cb088
/model.4/cv2/act/Sigmoid_output_0: 3c02ecb8
/model.4/cv2/act/Mul_output_0: 3cb1fe5d
/model.5/conv/Conv_output_0: 3d975789
/model.5/act/Sigmoid_output_0: 3c009a12
/model.5/act/Mul_output_0: 3c9ae3ab
/model.6/cv1/conv/Conv_output_0: 3d7e18f1
/model.6/cv1/act/Sigmoid_output_0: 3c01c7e9
/model.6/cv1/act/Mul_output_0: 3cb16a54
/model.22/Split_1_output_0: 3e109684
ONNXTRT_Broadcast_220_output: 3b810a14
/model.22/ConstantOfShape_2_output_0: 0
/model.22/Transpose_output_0: 3f204a85
/model.22/Split_1_output_1: 3e501fac
/model.22/Range_2_output_0: 3e9d4449
/model.6/Split_output_0: 3cb16a54
/model.22/Sub_output_0: 3f1fe6ee
/model.22/Constant_57_output_0_output: 3c010a14
/model.22/Unsqueeze_12_output_0: 3e1d4449
/model.6/Split_output_1: 3c87e901
/model.6/m.0/cv1/conv/Conv_output_0: 3d8b3af5
/model.6/m.0/cv1/act/Sigmoid_output_0: 3bfc955a
/model.6/m.0/cv1/act/Mul_output_0: 3c878e4b
/model.6/m.0/cv2/conv/Conv_output_0: 3d95a06e
/model.6/m.0/cv2/act/Sigmoid_output_0: 3c0ce730
/model.6/m.0/cv2/act/Mul_output_0: 3cd560cd
/model.6/m.0/Add_output_0: 3d30b386
/model.6/m.1/cv1/conv/Conv_output_0: 3d60b986
/model.6/m.1/cv1/act/Sigmoid_output_0: 3c085d7d
/model.6/m.1/cv1/act/Mul_output_0: 3c5bd54c
/model.6/m.1/cv2/conv/Conv_output_0: 3da84c17
/model.6/m.1/cv2/act/Sigmoid_output_0: 3c0110fb
/model.6/m.1/cv2/act/Mul_output_0: 3d10f908
/model.6/m.1/Add_output_0: 3db3d06e
/model.6/Concat_output_0: 3d03bbea
/model.6/cv2/conv/Conv_output_0: 3d449daa
/model.6/cv2/act/Sigmoid_output_0: 3c002a01
/model.6/cv2/act/Mul_output_0: 3c9b870b
/model.7/conv/Conv_output_0: 3d875db8
/model.7/act/Sigmoid_output_0: 3c016a8c
/model.7/act/Mul_output_0: 3cebc98f
/model.8/cv1/conv/Conv_output_0: 3d9c2702
/model.8/cv1/act/Sigmoid_output_0: 3c087f76
/model.8/cv1/act/Mul_output_0: 3ceaa0c8
ONNXTRT_ShapeShuffle_365_output: 0
/model.22/Expand_1_output_0: 3f204a85
/model.22/Constant_24_output_0_output: 0
/model.22/Concat_14_output_0: 3f204a85
/model.22/Range_1_output_0: 3f1f4871
/model.22/Constant_37_output_0_output: 0
/model.8/Split_output_0: 3ceaa0c8
/model.22/Reshape_13_output_0: 3e9f4871
(Unnamed Layer* 561) [Constant]_output: 0
/model.22/Constant_39_output_0_output: 3b810a14
/model.8/Split_output_1: 3c9bbbe7
/model.8/m.0/cv1/conv/Conv_output_0: 3d9c6a81
/model.8/m.0/cv1/act/Sigmoid_output_0: 3c00e830
/model.8/m.0/cv1/act/Mul_output_0: 3cb4d4b7
/model.8/m.0/cv2/conv/Conv_output_0: 3dea2d1b
/model.8/m.0/cv2/act/Sigmoid_output_0: 3c010a14
/model.8/m.0/cv2/act/Mul_output_0: 3d6d231f
/model.8/m.0/Add_output_0: 3da068f4
/model.8/Concat_output_0: 3d444842
/model.8/cv2/conv/Conv_output_0: 3db0dbe0
/model.8/cv2/act/Sigmoid_output_0: 3c01a737
/model.8/cv2/act/Mul_output_0: 3cebd64a
/model.9/cv1/conv/Conv_output_0: 3d612cee
/model.9/cv1/act/Sigmoid_output_0: 3c005f18
/model.9/cv1/act/Mul_output_0: 3d3fe7c4
/model.9/m/MaxPool_output_0: 3d3fe7c4
/model.9/m_1/MaxPool_output_0: 3d3fe7c4
/model.9/m_2/MaxPool_output_0: 3d3fe7c4
/model.9/Concat_output_0: 3d8c5909
/model.9/cv2/conv/Conv_output_0: 3d9866bb
/model.9/cv2/act/Sigmoid_output_0: 3c0110d1
/model.9/cv2/act/Mul_output_0: 3c6cafe0
/model.10/Resize_output_0: 3c6cafe0
/model.11/Concat_output_0: 3c6cafe0
/model.12/cv1/conv/Conv_output_0: 3d73ed0d
/model.12/cv1/act/Sigmoid_output_0: 3c00e78e
/model.12/cv1/act/Mul_output_0: 3c9963ab
/model.22/Constant_40_output_0_output: 0
output0: 3f8cf591
/model.22/Sigmoid_output_0: 3af00da8
ONNXTRT_ShapeShuffle_139_output: 3c010a14
/model.22/Add_10_output_0: 3f21b509
/model.22/Reshape_16_output_0: 3e1d4449
/model.12/Split_output_0: 3c9963ab
/model.22/Slice_output_0: 3de775b2
/model.22/Expand_5_output_0: 3e1d4449
/model.22/Reshape_15_output_0: 3e9f4871
/model.12/Split_output_1: 3cc0ef36
/model.12/m.0/cv1/conv/Conv_output_0: 3d69ac3c
/model.12/m.0/cv1/act/Sigmoid_output_0: 3c00b3a1
/model.12/m.0/cv1/act/Mul_output_0: 3c8024ad
/model.12/m.0/cv2/conv/Conv_output_0: 3d701347
/model.12/m.0/cv2/act/Sigmoid_output_0: 3c00a86b
/model.12/m.0/cv2/act/Mul_output_0: 3cd2721b
/model.12/Concat_output_0: 3cd2721b
/model.12/cv2/conv/Conv_output_0: 3d7a106c
/model.12/cv2/act/Sigmoid_output_0: 3c009c1c
/model.12/cv2/act/Mul_output_0: 3cb46024
/model.13/Resize_output_0: 3cb46024
/model.14/Concat_output_0: 3cc0fa22
/model.15/cv1/conv/Conv_output_0: 3d205acf
/model.15/cv1/act/Sigmoid_output_0: 3bfca503
/model.15/cv1/act/Mul_output_0: 3ce8c0e2
/model.22/Reshape_8_output_0: 3f204a85
/model.22/Transpose_1_output_0: 3e810a14
/model.22/Reshape_12_output_0: 3e9f4871
/model.22/Unsqueeze_7_output_0: 3f204a85
ONNXTRT_ShapeShuffle_205_output: 0
ONNXTRT_Broadcast_output: 3b810a14
/model.15/Split_output_0: 3d015d14
/model.22/Constant_26_output_0_output: 3b810a14
/model.22/Constant_23_output_0_output: 3b810a14
ONNXTRT_Broadcast_208_output: 3d810a14
/model.15/Split_output_1: 3c9025c4
/model.15/m.0/cv1/conv/Conv_output_0: 3d56a4cd
/model.15/m.0/cv1/act/Sigmoid_output_0: 3bfed716
/model.15/m.0/cv1/act/Mul_output_0: 3c9201c5
/model.15/m.0/cv2/conv/Conv_output_0: 3d42890e
/model.15/m.0/cv2/act/Sigmoid_output_0: 3c006881
/model.15/m.0/cv2/act/Mul_output_0: 3cc0a3b5
/model.15/Concat_output_0: 3ce70d5a
/model.15/cv2/conv/Conv_output_0: 3d56a816
/model.15/cv2/act/Sigmoid_output_0: 3bfbc944
/model.15/cv2/act/Mul_output_0: 3cb1657d
/model.16/conv/Conv_output_0: 3d616db7
/model.16/act/Sigmoid_output_0: 3c008dd3
/model.16/act/Mul_output_0: 3c9a149a
/model.17/Concat_output_0: 3c9a149a
/model.18/cv1/conv/Conv_output_0: 3d6c0692
/model.18/cv1/act/Sigmoid_output_0: 3c00815e
/model.18/cv1/act/Mul_output_0: 3cc0d444
/model.22/ConstantOfShape_output_0: 0
/model.22/Reshape_17_output_0: 3e1d4449
/model.22/Reshape_10_output_0: 3f204a85
ONNXTRT_ShapeShuffle_285_output: 0
/model.22/Constant_58_output_0_output: 3b810a14
/model.22/Range_4_output_0: 3e193bf8
/model.18/Split_output_0: 3cb317f9
/model.22/Add_5_output_0: 3e010a14
/model.22/Mul_5_output_0: 40a46d0a
/model.22/Unsqueeze_6_output_0: 3f204a85
/model.18/Split_output_1: 3cc0d444
/model.18/m.0/cv1/conv/Conv_output_0: 3d6ecb6b
/model.18/m.0/cv1/act/Sigmoid_output_0: 3bfd53ef
/model.18/m.0/cv1/act/Mul_output_0: 3c7f941a
/model.18/m.0/cv2/conv/Conv_output_0: 3d95f0af
/model.18/m.0/cv2/act/Sigmoid_output_0: 3c00f0b3
/model.18/m.0/cv2/act/Mul_output_0: 3ce730a1
/model.18/Concat_output_0: 3ce730a1
/model.18/cv2/conv/Conv_output_0: 3d88d174
/model.18/cv2/act/Sigmoid_output_0: 3bffbb5a
/model.18/cv2/act/Mul_output_0: 3c660072
/model.19/conv/Conv_output_0: 3d7c993c
/model.19/act/Sigmoid_output_0: 3c00cab2
/model.19/act/Mul_output_0: 3ced227b
/model.20/Concat_output_0: 3cc573ab
/model.21/cv1/conv/Conv_output_0: 3d8ca6d6
/model.21/cv1/act/Sigmoid_output_0: 3c00ec76
/model.21/cv1/act/Mul_output_0: 3cc14bcf
/model.22/dfl/Softmax_output_0: 3bbb97f0
(Unnamed Layer* 659) [Constant]_output: 0
ONNXTRT_ShapeShuffle_310_output: 3c010a14
/model.22/ConstantOfShape_1_output_0: 0
/model.22/dfl/Reshape_output_0: 3e109684
/model.22/Add_7_output_0: 3e1d4449
/model.21/Split_output_0: 3cc14bcf
/model.22/Constant_55_output_0_output: 3b810a14
/model.22/dfl/conv/Conv_output_0: 3de5742f
/model.22/Unsqueeze_10_output_0: 3e9f4871
/model.21/Split_output_1: 3ca57d5d
/model.21/m.0/cv1/conv/Conv_output_0: 3d8229d8
/model.21/m.0/cv1/act/Sigmoid_output_0: 3c00eb53
/model.21/m.0/cv1/act/Mul_output_0: 3ca69ff6
/model.21/m.0/cv2/conv/Conv_output_0: 3dae1c9d
/model.21/m.0/cv2/act/Sigmoid_output_0: 3c01121d
/model.21/m.0/cv2/act/Mul_output_0: 3d13db8a
/model.21/Concat_output_0: 3d032912
/model.21/cv2/conv/Conv_output_0: 3dfdf67a
/model.21/cv2/act/Sigmoid_output_0: 3c016078
/model.21/cv2/act/Mul_output_0: 3c601a30
/model.22/proto/cv1/conv/Conv_output_0: 3d28abf0
/model.22/proto/cv1/act/Sigmoid_output_0: 3bff97c1
/model.22/proto/cv1/act/Mul_output_0: 3cb25485
/model.22/proto/upsample/ConvTranspose_output_0: 3b3b8832
/model.22/proto/cv2/conv/Conv_output_0: 3d2d1dae
/model.22/proto/cv2/act/Sigmoid_output_0: 3be29977
/model.22/proto/cv2/act/Mul_output_0: 3be785f8
/model.22/proto/cv3/conv/Conv_output_0: 3d620563
/model.22/proto/cv3/act/Sigmoid_output_0: 3c006b16
output1: 3d124be7
/model.22/Expand_3_output_0: 3e9f4871
/model.22/Range_5_output_0: 3e193bf8
/model.22/Concat_19_output_0: 3e9f4871
/model.22/Constant_53_output_0_output: 0
/model.22/cv4.0/cv4.0.0/conv/Conv_output_0: 3d3f56d8
/model.22/cv4.0/cv4.0.0/act/Sigmoid_output_0: 3bfecebe
/model.22/cv4.0/cv4.0.0/act/Mul_output_0: 3c9070e7
/model.22/cv4.0/cv4.0.1/conv/Conv_output_0: 3d63ba23
/model.22/cv4.0/cv4.0.1/act/Sigmoid_output_0: 3c00af4e
/model.22/cv4.0/cv4.0.1/act/Mul_output_0: 3d11496d
/model.22/cv4.0/cv4.0.2/Conv_output_0: 3ce09e77
/model.22/Concat_24_output_0: 3e1d4449
/model.22/Constant_25_output_0_output: 3c010a14
ONNXTRT_Broadcast_492_output: 3e810a14
/model.22/Add_4_output_0: 3e9f4871
/model.22/Add_2_output_0: 3d810a14
ONNXTRT_Broadcast_485_output: 3c810a14
/model.22/Sub_1_output_0: 3e60fcc1
/model.22/Reshape_6_output_0: 3f204a85
/model.22/Constant_54_output_0_output: 3c010a14
/model.22/Reshape_20_output_0: 3e1d4449
/model.22/dfl/Transpose_output_0: 3e109684
/model.22/Reshape_7_output_0: 3f204a85
/model.22/Reshape_output_0: 3ce09e77
/model.22/cv4.1/cv4.1.0/conv/Conv_output_0: 3d541a0d
/model.22/cv4.1/cv4.1.0/act/Sigmoid_output_0: 3c006f02
/model.22/cv4.1/cv4.1.0/act/Mul_output_0: 3c8056c8
/model.22/cv4.1/cv4.1.1/conv/Conv_output_0: 3d7b0afd
/model.22/cv4.1/cv4.1.1/act/Sigmoid_output_0: 3c00d023
/model.22/cv4.1/cv4.1.1/act/Mul_output_0: 3d26774a
/model.22/cv4.1/cv4.1.2/Conv_output_0: 3cbcae17
/model.22/Reshape_1_output_0: 3cbcae17
/model.22/cv4.2/cv4.2.0/conv/Conv_output_0: 3d7eaaf7
/model.22/cv4.2/cv4.2.0/act/Sigmoid_output_0: 3c00c837
/model.22/cv4.2/cv4.2.0/act/Mul_output_0: 3cc001af
/model.22/cv4.2/cv4.2.1/conv/Conv_output_0: 3d869a92
/model.22/cv4.2/cv4.2.1/act/Sigmoid_output_0: 3c00e877
/model.22/cv4.2/cv4.2.1/act/Mul_output_0: 3cffc6b7
/model.22/cv4.2/cv4.2.2/Conv_output_0: 3ccceb32
/model.22/Reshape_2_output_0: 3ccceb32
/model.22/Concat_3_output_0: 3ce09e77
/model.22/cv2.0/cv2.0.0/conv/Conv_output_0: 3d743566
/model.22/cv2.0/cv2.0.0/act/Sigmoid_output_0: 3c006f47
/model.22/cv2.0/cv2.0.0/act/Mul_output_0: 3c88fe89
/model.22/cv2.0/cv2.0.1/conv/Conv_output_0: 3e62e0b9
/model.22/cv2.0/cv2.0.1/act/Sigmoid_output_0: 3c010a14
/model.22/cv2.0/cv2.0.1/act/Mul_output_0: 3e12fbb2
/model.22/cv2.0/cv2.0.2/Conv_output_0: 3e171297
/model.22/cv3.0/cv3.0.0/conv/Conv_output_0: 3d79c879
/model.22/cv3.0/cv3.0.0/act/Sigmoid_output_0: 3c008777
/model.22/cv3.0/cv3.0.0/act/Mul_output_0: 3c754af0
/model.22/cv3.0/cv3.0.1/conv/Conv_output_0: 3e5bc3d5
/model.22/cv3.0/cv3.0.1/act/Sigmoid_output_0: 3c010a14
/model.22/cv3.0/cv3.0.1/act/Mul_output_0: 3e294004
/model.22/cv3.0/cv3.0.2/Conv_output_0: 3e41a94f
/model.22/Concat_4_output_0: 3e41a94f
/model.22/cv2.1/cv2.1.0/conv/Conv_output_0: 3dbcbaa0
/model.22/cv2.1/cv2.1.0/act/Sigmoid_output_0: 3c00dd24
/model.22/cv2.1/cv2.1.0/act/Mul_output_0: 3cc26a52
/model.22/cv2.1/cv2.1.1/conv/Conv_output_0: 3e84dc63
/model.22/cv2.1/cv2.1.1/act/Sigmoid_output_0: 3c010a14
/model.22/cv2.1/cv2.1.1/act/Mul_output_0: 3dca1926
/model.22/cv2.1/cv2.1.2/Conv_output_0: 3de8049d
/model.22/cv3.1/cv3.1.0/conv/Conv_output_0: 3d9aeea4
/model.22/cv3.1/cv3.1.0/act/Sigmoid_output_0: 3c00ed37
/model.22/cv3.1/cv3.1.0/act/Mul_output_0: 3d02f449
/model.22/cv3.1/cv3.1.1/conv/Conv_output_0: 3e9434d0
/model.22/cv3.1/cv3.1.1/act/Sigmoid_output_0: 3c010a14
/model.22/cv3.1/cv3.1.1/act/Mul_output_0: 3e28a336
/model.22/cv3.1/cv3.1.2/Conv_output_0: 3e611ab0
/model.22/Concat_5_output_0: 3e5a39fa
/model.22/cv2.2/cv2.2.0/conv/Conv_output_0: 3db91742
/model.22/cv2.2/cv2.2.0/act/Sigmoid_output_0: 3c00ef86
/model.22/cv2.2/cv2.2.0/act/Mul_output_0: 3d105e49
/model.22/cv2.2/cv2.2.1/conv/Conv_output_0: 3ea43ab6
/model.22/cv2.2/cv2.2.1/act/Sigmoid_output_0: 3c010a14
/model.22/cv2.2/cv2.2.1/act/Mul_output_0: 3e1373a1
/model.22/cv2.2/cv2.2.2/Conv_output_0: 3dd7cd48
/model.22/cv3.2/cv3.2.0/conv/Conv_output_0: 3db5f2d0
/model.22/cv3.2/cv3.2.0/act/Sigmoid_output_0: 3c010df7
/model.22/cv3.2/cv3.2.0/act/Mul_output_0: 3d00d6d6
/model.22/cv3.2/cv3.2.1/conv/Conv_output_0: 3e9a85f0
/model.22/cv3.2/cv3.2.1/act/Sigmoid_output_0: 3c010a14
/model.22/cv3.2/cv3.2.1/act/Mul_output_0: 3e174d5c
/model.22/cv3.2/cv3.2.2/Conv_output_0: 3e6873a8
/model.22/Concat_6_output_0: 3e6873a8
/model.22/Add_output_0: 3f204a85
/model.22/Range_output_0: 3f1f4871
/model.22/Range_3_output_0: 3e9d4449
/model.22/Constant_74_output_0_output: 3c810a14
/model.22/Reshape_14_output_0: 3e9f4871
/model.22/Concat_28_output_0: 3f232e5b
ONNXTRT_Broadcast_300_output: 3b810a14
/model.22/Unsqueeze_9_output_0: 3e9f4871
/model.22/Expand_output_0: 3f204a85
/model.22/Add_1_output_0: 3f204a85
/model.22/Concat_26_output_0: 3f204a85
/model.22/dfl/Softmax_output: 3bbb97f0
/model.22/Concat_27_output_0: 3e810a14
/model.22/Add_6_output_0: 3e1d4449
/model.22/Unsqueeze_13_output_0: 3e1d4449
ONNXTRT_ShapeShuffle_218_output: 3c010a14
/model.22/Reshape_3_output_0: 3e41a94f
/model.22/Reshape_4_output_0: 3e5a39fa
/model.22/Reshape_5_output_0: 3e6873a8
/model.22/Concat_10_output_0: 3e523355
/model.22/Constant_14_output_0_output: 3e810a14
/model.22/Split_output_0: 3d810a14
/model.22/Split_output_1: 3e010a14
/model.22/Split_output_2: 3e810a14
/model.22/Squeeze_output_0: 3d810a14
/model.22/Squeeze_1_output_0: 3e010a14
/model.22/Squeeze_2_output_0: 3e810a14
/model.22/Add_11_output_0: 3fa083d5
/model.22/Constant_22_output_0_output: 3c010a14
ONNXTRT_Broadcast_288_output: 3e010a14
ONNXTRT_ShapeShuffle_298_output: 3c010a14
ONNXTRT_Broadcast_232_output: 3b810a14
/model.22/Div_1_output_0: 3f2083d5
ONNXTRT_Broadcast_368_output: 3e810a14
/model.22/Reshape_9_output_0: 3f204a85
ONNXTRT_ShapeShuffle_150_output: 3c010a14
/model.22/Constant_21_output_0_output: 0
