TRT-100100-EntropyCalibration2
images: 3bf80000
/model.0/conv/Conv_output_0: 3dc95f12
/model.0/act/Sigmoid_output_0: 3c010a14
/model.0/act/Mul_output_0: 3d4b6c64
/model.1/conv/Conv_output_0: 3e27c341
/model.1/act/Sigmoid_output_0: 3c010a14
/model.1/act/Mul_output_0: 3e178172
/model.2/cv1/conv/Conv_output_0: 3e199f01
/model.2/cv1/act/Sigmoid_output_0: 3c010a14
/model.2/cv1/act/Mul_output_0: 3d815080
/model.22/ConstantOfShape_2_output_0: 0
ONNXTRT_Broadcast_312_output: 3b810a14
/model.22/Transpose_output_0: 3f204a85
/model.22/Unsqueeze_13_output_0: 3e1d4449
/model.22/Add_6_output_0: 3e1d4449
/model.22/Reshape_11_output_0: 3e9f4871
/model.2/Split_output_0: 3d877e49
/model.22/dfl/Reshape_1_output_0: 3dfa8ea6
/model.22/Concat_15_output_0: 3f204a85
/model.22/Constant_43_output_0_output: 3c010a14
/model.2/Split_output_1: 3d48545a
/model.2/m.0/cv1/conv/Conv_output_0: 3dc657a3
/model.2/m.0/cv1/act/Sigmoid_output_0: 3c010a14
/model.2/m.0/cv1/act/Mul_output_0: 3d47558b
/model.2/m.0/cv2/conv/Conv_output_0: 3e0af5bb
/model.2/m.0/cv2/act/Sigmoid_output_0: 3c010a14
/model.2/m.0/cv2/act/Mul_output_0: 3d968e72
/model.2/m.0/Add_output_0: 3de6c867
/model.2/Concat_output_0: 3dc46629
/model.2/cv2/conv/Conv_output_0: 3d4c3e8b
/model.2/cv2/act/Sigmoid_output_0: 3c02f424
/model.2/cv2/act/Mul_output_0: 3d3e1672
/model.3/conv/Conv_output_0: 3d1c2fd7
/model.3/act/Sigmoid_output_0: 3bffc957
/model.3/act/Mul_output_0: 3cb22272
/model.4/cv1/conv/Conv_output_0: 3ce86e3a
/model.4/cv1/act/Sigmoid_output_0: 3bf9bdeb
/model.4/cv1/act/Mul_output_0: 3cea42d8
ONNXTRT_Broadcast_232_output: 3b810a14
/model.22/Sub_output_0: 3f2eeebd
ONNXTRT_ShapeShuffle_298_output: 3c010a14
/model.22/Constant_41_output_0_output: 3b810a14
/model.22/Constant_56_output_0_output: 3c010a14
/model.22/Constant_26_output_0_output: 0
/model.4/Split_output_0: 3ce5b028
ONNXTRT_ShapeShuffle_310_output: 3c010a14
/model.22/Expand_1_output_0: 3f204a85
/model.22/Sigmoid_output_0: 3bf2e548
/model.4/Split_output_1: 3c7a1584
/model.4/m.0/cv1/conv/Conv_output_0: 3cd835fe
/model.4/m.0/cv1/act/Sigmoid_output_0: 3bf31889
/model.4/m.0/cv1/act/Mul_output_0: 3cb1f228
/model.4/m.0/cv2/conv/Conv_output_0: 3d18a04a
/model.4/m.0/cv2/act/Sigmoid_output_0: 3bf75961
/model.4/m.0/cv2/act/Mul_output_0: 3ca4015d
/model.4/m.0/Add_output_0: 3d027ee5
/model.4/m.1/cv1/conv/Conv_output_0: 3d1de48f
/model.4/m.1/cv1/act/Sigmoid_output_0: 3bde447a
/model.4/m.1/cv1/act/Mul_output_0: 3c742253
/model.4/m.1/cv2/conv/Conv_output_0: 3d560957
/model.4/m.1/cv2/act/Sigmoid_output_0: 3c00e9d4
/model.4/m.1/cv2/act/Mul_output_0: 3d646ced
/model.4/m.1/Add_output_0: 3d8649c7
/model.4/Concat_output_0: 3d4b2978
/model.4/cv2/conv/Conv_output_0: 3d5dfc50
/model.4/cv2/act/Sigmoid_output_0: 3c0274be
/model.4/cv2/act/Mul_output_0: 3ca62710
/model.5/conv/Conv_output_0: 3d4e5561
/model.5/act/Sigmoid_output_0: 3c0233a5
/model.5/act/Mul_output_0: 3c9b0a77
/model.6/cv1/conv/Conv_output_0: 3d64f2b6
/model.6/cv1/act/Sigmoid_output_0: 3c00d9b3
/model.6/cv1/act/Mul_output_0: 3d20027b
/model.22/Unsqueeze_8_output_0: 3f204a85
/model.22/Mul_7_output_0: 40bd7fc8
/model.22/Constant_57_output_0_output: 3b810a14
ONNXTRT_Broadcast_368_output: 3e810a14
/model.22/Reshape_21_output_0: 3d80c456
/model.22/Constant_55_output_0_output: 0
/model.6/Split_output_0: 3d245d1b
ONNXTRT_Broadcast_220_output: 3b810a14
ONNXTRT_Broadcast_546_output: 3f1f4871
/model.22/ConstantOfShape_output_0: 0
/model.6/Split_output_1: 3cd0e465
/model.6/m.0/cv1/conv/Conv_output_0: 3d86dd27
/model.6/m.0/cv1/act/Sigmoid_output_0: 3c07df4b
/model.6/m.0/cv1/act/Mul_output_0: 3d02e09a
/model.6/m.0/cv2/conv/Conv_output_0: 3d65ed92
/model.6/m.0/cv2/act/Sigmoid_output_0: 3c010a44
/model.6/m.0/cv2/act/Mul_output_0: 3cba8d0e
/model.6/m.0/Add_output_0: 3d2b4315
/model.6/m.1/cv1/conv/Conv_output_0: 3d934e43
/model.6/m.1/cv1/act/Sigmoid_output_0: 3c02d52e
/model.6/m.1/cv1/act/Mul_output_0: 3ca6b14a
/model.6/m.1/cv2/conv/Conv_output_0: 3dd684d9
/model.6/m.1/cv2/act/Sigmoid_output_0: 3c010a14
/model.6/m.1/cv2/act/Mul_output_0: 3d90cbe5
/model.6/m.1/Add_output_0: 3def3525
/model.6/Concat_output_0: 3d708f0c
/model.6/cv2/conv/Conv_output_0: 3d7fe5d1
/model.6/cv2/act/Sigmoid_output_0: 3c01931f
/model.6/cv2/act/Mul_output_0: 3cf86255
/model.7/conv/Conv_output_0: 3da95509
/model.7/act/Sigmoid_output_0: 3c00d0e7
/model.7/act/Mul_output_0: 3ce8f6a8
/model.8/cv1/conv/Conv_output_0: 3d969813
/model.8/cv1/act/Sigmoid_output_0: 3c031624
/model.8/cv1/act/Mul_output_0: 3d12facb
/model.22/dfl/conv/Conv_output_0: 3dfa8ea6
(Unnamed Layer* 457) [Constant]_output: 0
/model.22/dfl/Softmax_output: 3bfa537f
ONNXTRT_ShapeShuffle_285_output: 0
/model.22/Reshape_6_output_0: 3f204a85
/model.22/Add_2_output_0: 3d810a14
/model.8/Split_output_0: 3d136af1
/model.22/Reshape_18_output_0: 3e1d4449
/model.22/Transpose_1_output_0: 3e810a14
ONNXTRT_Broadcast_288_output: 3e010a14
/model.8/Split_output_1: 3cc322b1
/model.8/m.0/cv1/conv/Conv_output_0: 3db65c4c
/model.8/m.0/cv1/act/Sigmoid_output_0: 3c011213
/model.8/m.0/cv1/act/Mul_output_0: 3cc20c72
/model.8/m.0/cv2/conv/Conv_output_0: 3e0597bf
/model.8/m.0/cv2/act/Sigmoid_output_0: 3c010a14
/model.8/m.0/cv2/act/Mul_output_0: 3d976647
/model.8/m.0/Add_output_0: 3de4be21
/model.8/Concat_output_0: 3d4041d5
/model.8/cv2/conv/Conv_output_0: 3db2085a
/model.8/cv2/act/Sigmoid_output_0: 3c010fa5
/model.8/cv2/act/Mul_output_0: 3d14625c
/model.9/cv1/conv/Conv_output_0: 3d82c56e
/model.9/cv1/act/Sigmoid_output_0: 3c00df3b
/model.9/cv1/act/Mul_output_0: 3d6acbce
/model.9/m/MaxPool_output_0: 3d6acbce
/model.9/m_1/MaxPool_output_0: 3d6acbce
/model.9/m_2/MaxPool_output_0: 3d6acbce
/model.9/Concat_output_0: 3d92d235
/model.9/cv2/conv/Conv_output_0: 3dca07c7
/model.9/cv2/act/Sigmoid_output_0: 3c010efc
/model.9/cv2/act/Mul_output_0: 3c90ee65
/model.10/Resize_output_0: 3c90ee65
/model.11/Concat_output_0: 3d0a55bd
/model.12/cv1/conv/Conv_output_0: 3d92258c
/model.12/cv1/act/Sigmoid_output_0: 3c00edbd
/model.12/cv1/act/Mul_output_0: 3cd2e0ad
/model.22/Unsqueeze_16_output_0: 3f204a85
ONNXTRT_Broadcast_485_output: 3c810a14
/model.22/Expand_2_output_0: 3e9f4871
/model.22/Unsqueeze_14_output_0: 3e1d4449
ONNXTRT_Broadcast_553_output: 3e810a14
/model.22/Concat_27_output_0: 3f204a85
/model.12/Split_output_0: 3cd4172d
/model.22/Range_3_output_0: 3e9d4449
/model.22/Constant_42_output_0_output: 0
/model.22/Expand_output_0: 3f204a85
/model.12/Split_output_1: 3cd2e0ad
/model.12/m.0/cv1/conv/Conv_output_0: 3d9536a3
/model.12/m.0/cv1/act/Sigmoid_output_0: 3c00dbb4
/model.12/m.0/cv1/act/Mul_output_0: 3cd60b98
/model.12/m.0/cv2/conv/Conv_output_0: 3dcf92fe
/model.12/m.0/cv2/act/Sigmoid_output_0: 3c01120d
/model.12/m.0/cv2/act/Mul_output_0: 3d458f91
/model.12/Concat_output_0: 3d146c1e
/model.12/cv2/conv/Conv_output_0: 3d94c2cf
/model.12/cv2/act/Sigmoid_output_0: 3c0106d9
/model.12/cv2/act/Mul_output_0: 3cb2265c
/model.13/Resize_output_0: 3cb2265c
/model.14/Concat_output_0: 3cd4f789
/model.15/cv1/conv/Conv_output_0: 3d80dd44
/model.15/cv1/act/Sigmoid_output_0: 3c010f67
/model.15/cv1/act/Mul_output_0: 3cd5694e
/model.22/Reshape_22_output_0: 40a561fc
/model.22/Add_10_output_0: 3f2baa90
/model.22/Constant_58_output_0_output: 0
/model.22/Unsqueeze_10_output_0: 3e9f4871
/model.22/Reshape_16_output_0: 3e1d4449
/model.22/Split_1_output_0: 3dd018bd
/model.15/Split_output_0: 3cd5694e
/model.22/Div_1_output_0: 3f20bb63
/model.22/Sub_2_output_0: 3f1f4871
/model.22/Sigmoid_1_output_0: 3c00d9c7
/model.15/Split_output_1: 3cc11192
/model.15/m.0/cv1/conv/Conv_output_0: 3d807b0b
/model.15/m.0/cv1/act/Sigmoid_output_0: 3bfba965
/model.15/m.0/cv1/act/Mul_output_0: 3c895f95
/model.15/m.0/cv2/conv/Conv_output_0: 3d96c9c9
/model.15/m.0/cv2/act/Sigmoid_output_0: 3c00af6c
/model.15/m.0/cv2/act/Mul_output_0: 3d27ee04
/model.15/Concat_output_0: 3d131c5a
/model.15/cv2/conv/Conv_output_0: 3d8eb58c
/model.15/cv2/act/Sigmoid_output_0: 3c015202
/model.15/cv2/act/Mul_output_0: 3cd6d326
/model.16/conv/Conv_output_0: 3d863758
/model.16/act/Sigmoid_output_0: 3c00eefb
/model.16/act/Mul_output_0: 3cd41464
/model.17/Concat_output_0: 3cd41464
/model.18/cv1/conv/Conv_output_0: 3d93da6c
/model.18/cv1/act/Sigmoid_output_0: 3c00caab
/model.18/cv1/act/Mul_output_0: 3cd40eea
(Unnamed Layer* 555) [Constant]_output: 0
/model.22/ConstantOfShape_1_output_0: 0
/model.22/Add_12_output_0: 3f254a10
/model.22/Reshape_19_output_0: 3e1d4449
/model.22/Concat_20_output_0: 3e9f4871
/model.22/Constant_60_output_0_output: 3b810a14
/model.18/Split_output_0: 3cd40eea
/model.22/Concat_29_output_0: 3f20bb63
/model.22/Concat_25_output_0: 3e1d4449
/model.22/Constant_28_output_0_output: 3b810a14
/model.18/Split_output_1: 3cc1df2b
/model.18/m.0/cv1/conv/Conv_output_0: 3d722e7e
/model.18/m.0/cv1/act/Sigmoid_output_0: 3c00f5ab
/model.18/m.0/cv1/act/Mul_output_0: 3cd40b57
/model.18/m.0/cv2/conv/Conv_output_0: 3da8f177
/model.18/m.0/cv2/act/Sigmoid_output_0: 3c011208
/model.18/m.0/cv2/act/Mul_output_0: 3d1239a5
/model.18/Concat_output_0: 3d1239a5
/model.18/cv2/conv/Conv_output_0: 3d88021e
/model.18/cv2/act/Sigmoid_output_0: 3c00d5f7
/model.18/cv2/act/Mul_output_0: 3cd49b73
/model.19/conv/Conv_output_0: 3d9b5425
/model.19/act/Sigmoid_output_0: 3c00f054
/model.19/act/Mul_output_0: 3ce9216f
/model.20/Concat_output_0: 3ce9216f
/model.21/cv1/conv/Conv_output_0: 3d8b38f1
/model.21/cv1/act/Sigmoid_output_0: 3c010ba0
/model.21/cv1/act/Mul_output_0: 3d0197d0
/model.22/Reshape_13_output_0: 3e9f4871
/model.22/Range_2_output_0: 3e9d4449
/model.22/Constant_39_output_0_output: 0
ONNXTRT_Broadcast_539_output: 3b810a14
/model.22/Constant_84_output_0_output: 3c810a14
/model.22/Reshape_10_output_0: 3f204a85
/model.21/Split_output_0: 3d01dc92
/model.22/Range_5_output_0: 3e193bf8
(Unnamed Layer* 653) [Constant]_output: 0
/model.22/Slice_output_0: 3dfa8ea6
/model.21/Split_output_1: 3cd1187e
/model.21/m.0/cv1/conv/Conv_output_0: 3d95748a
/model.21/m.0/cv1/act/Sigmoid_output_0: 3c00e57b
/model.21/m.0/cv1/act/Mul_output_0: 3ceb2018
/model.21/m.0/cv2/conv/Conv_output_0: 3dce279c
/model.21/m.0/cv2/act/Sigmoid_output_0: 3c011131
/model.21/m.0/cv2/act/Mul_output_0: 3d44d7b5
/model.21/Concat_output_0: 3d13c169
/model.21/cv2/conv/Conv_output_0: 3e021c32
/model.21/cv2/act/Sigmoid_output_0: 3c011185
/model.21/cv2/act/Mul_output_0: 3d2901f6
/model.22/Sub_1_output_0: 3e5bdedc
/model.22/Constant_44_output_0_output: 3b810a14
/model.22/Split_1_output_1: 3e8cd09f
/model.22/Concat_31_output_0: 40a561fc
/model.22/cv4.0/cv4.0.0/conv/Conv_output_0: 3df3edef
/model.22/cv4.0/cv4.0.0/act/Sigmoid_output_0: 3c010a14
/model.22/cv4.0/cv4.0.0/act/Mul_output_0: 3d70a0b1
/model.22/cv4.0/cv4.0.1/conv/Conv_output_0: 3ddaa1a5
/model.22/cv4.0/cv4.0.1/act/Sigmoid_output_0: 3c011206
/model.22/cv4.0/cv4.0.1/act/Mul_output_0: 3d41a5d5
/model.22/cv4.0/cv4.0.2/Conv_output_0: 3d45f18f
/model.22/Expand_4_output_0: 3e1d4449
ONNXTRT_ShapeShuffle_230_output: 3c010a14
/model.22/Add_11_output_0: 3fa0bb63
/model.22/Reshape_8_output_0: 3f204a85
/model.22/Reshape_20_output_0: 3e1d4449
/model.22/Constant_85_output_0_output: 3b810a14
/model.22/Add_7_output_0: 3e1d4449
/model.22/Mul_5_output_0: 40a0bb63
/model.22/Add_3_output_0: 3e9f4871
ONNXTRT_ShapeShuffle_205_output: 0
/model.22/Constant_27_output_0_output: 3c010a14
output0: 40a561fc
/model.22/Expand_3_output_0: 3e9f4871
/model.22/Constant_40_output_0_output: 3c010a14
/model.22/Reshape_14_output_0: 3e9f4871
/model.22/Reshape_7_output_0: 3f204a85
/model.22/Reshape_output_0: 3d45f18f
/model.22/cv4.1/cv4.1.0/conv/Conv_output_0: 3dcdf366
/model.22/cv4.1/cv4.1.0/act/Sigmoid_output_0: 3c0111a3
/model.22/cv4.1/cv4.1.0/act/Mul_output_0: 3d41d58e
/model.22/cv4.1/cv4.1.1/conv/Conv_output_0: 3db4faee
/model.22/cv4.1/cv4.1.1/act/Sigmoid_output_0: 3c011108
/model.22/cv4.1/cv4.1.1/act/Mul_output_0: 3d689698
/model.22/cv4.1/cv4.1.2/Conv_output_0: 3d72d07e
/model.22/Reshape_1_output_0: 3d72d07e
/model.22/cv4.2/cv4.2.0/conv/Conv_output_0: 3dbc2648
/model.22/cv4.2/cv4.2.0/act/Sigmoid_output_0: 3c010d4d
/model.22/cv4.2/cv4.2.0/act/Mul_output_0: 3d6a9fb6
/model.22/cv4.2/cv4.2.1/conv/Conv_output_0: 3dca57e5
/model.22/cv4.2/cv4.2.1/act/Sigmoid_output_0: 3c0211ed
/model.22/cv4.2/cv4.2.1/act/Mul_output_0: 3d914c9c
/model.22/cv4.2/cv4.2.2/Conv_output_0: 3dacea66
/model.22/Reshape_2_output_0: 3dacea66
/model.22/Concat_4_output_0: 3d80c456
/model.22/cv2.0/cv2.0.0/conv/Conv_output_0: 3d876b87
/model.22/cv2.0/cv2.0.0/act/Sigmoid_output_0: 3c009e41
/model.22/cv2.0/cv2.0.0/act/Mul_output_0: 3cc34e23
/model.22/cv2.0/cv2.0.1/conv/Conv_output_0: 3e343745
/model.22/cv2.0/cv2.0.1/act/Sigmoid_output_0: 3c010a14
/model.22/cv2.0/cv2.0.1/act/Mul_output_0: 3dcf19d2
/model.22/cv2.0/cv2.0.2/Conv_output_0: 3dc52017
/model.22/cv3.0/cv3.0.0/conv/Conv_output_0: 3d6fffa6
/model.22/cv3.0/cv3.0.0/act/Sigmoid_output_0: 3c007d95
/model.22/cv3.0/cv3.0.0/act/Mul_output_0: 3ca6b551
/model.22/cv3.0/cv3.0.1/conv/Conv_output_0: 3dfe8e76
/model.22/cv3.0/cv3.0.1/act/Sigmoid_output_0: 3c010a14
/model.22/cv3.0/cv3.0.1/act/Mul_output_0: 3d6e9322
/model.22/cv3.0/cv3.0.2/Conv_output_0: 3e3e36a3
/model.22/Concat_5_output_0: 3e1b4b49
/model.22/cv2.1/cv2.1.0/conv/Conv_output_0: 3da65d6b
/model.22/cv2.1/cv2.1.0/act/Sigmoid_output_0: 3c010030
/model.22/cv2.1/cv2.1.0/act/Mul_output_0: 3cb13d70
/model.22/cv2.1/cv2.1.1/conv/Conv_output_0: 3e450c9f
/model.22/cv2.1/cv2.1.1/act/Sigmoid_output_0: 3c010a14
/model.22/cv2.1/cv2.1.1/act/Mul_output_0: 3dd07f2d
/model.22/cv2.1/cv2.1.2/Conv_output_0: 3dd6f069
/model.22/cv3.1/cv3.1.0/conv/Conv_output_0: 3d8fe0c1
/model.22/cv3.1/cv3.1.0/act/Sigmoid_output_0: 3c0025a4
/model.22/cv3.1/cv3.1.0/act/Mul_output_0: 3cb0e70f
/model.22/cv3.1/cv3.1.1/conv/Conv_output_0: 3e3441c8
/model.22/cv3.1/cv3.1.1/act/Sigmoid_output_0: 3c010a14
/model.22/cv3.1/cv3.1.1/act/Mul_output_0: 3dd90221
/model.22/cv3.1/cv3.1.2/Conv_output_0: 3e9d7d43
/model.22/Concat_6_output_0: 3e4aed4a
/model.22/cv2.2/cv2.2.0/conv/Conv_output_0: 3d92693e
/model.22/cv2.2/cv2.2.0/act/Sigmoid_output_0: 3c00f2cb
/model.22/cv2.2/cv2.2.0/act/Mul_output_0: 3cd1214c
/model.22/cv2.2/cv2.2.1/conv/Conv_output_0: 3e82efcc
/model.22/cv2.2/cv2.2.1/act/Sigmoid_output_0: 3c010a14
/model.22/cv2.2/cv2.2.1/act/Mul_output_0: 3e15d89f
/model.22/cv2.2/cv2.2.2/Conv_output_0: 3dd424ea
/model.22/cv3.2/cv3.2.0/conv/Conv_output_0: 3db8df66
/model.22/cv3.2/cv3.2.0/act/Sigmoid_output_0: 3c030ec5
/model.22/cv3.2/cv3.2.0/act/Mul_output_0: 3cc03a76
/model.22/cv3.2/cv3.2.1/conv/Conv_output_0: 3e6c378e
/model.22/cv3.2/cv3.2.1/act/Sigmoid_output_0: 3c010a14
/model.22/cv3.2/cv3.2.1/act/Mul_output_0: 3dd09458
/model.22/cv3.2/cv3.2.2/Conv_output_0: 3ea3b44b
/model.22/Concat_7_output_0: 3e4ac625
/model.22/Add_1_output_0: 3f204a85
/model.22/Slice_2_output_0: 3d366cc6
/model.22/dfl/Reshape_output_0: 3dd018bd
ONNXTRT_ShapeShuffle_150_output: 3c010a14
ONNXTRT_ShapeShuffle_218_output: 3c010a14
/model.22/Mul_6_output_0: 3db66cc6
/model.22/Slice_1_output_0: 3dce4fc2
/model.22/Reshape_12_output_0: 3e9f4871
/model.22/dfl/Transpose_output_0: 3dd018bd
/model.22/Reshape_15_output_0: 3e9f4871
/model.22/dfl/Softmax_output_0: 3bfa537f
/model.22/Add_4_output_0: 3e9f4871
/model.22/Range_4_output_0: 3e193bf8
/model.22/Slice_3_output_0: 3d96709f
ONNXTRT_Broadcast_492_output: 3e810a14
/model.22/Add_5_output_0: 3e010a14
/model.22/Reshape_3_output_0: 3e1b4b49
/model.22/Reshape_4_output_0: 3e4aed4a
/model.22/Reshape_5_output_0: 3e4ac625
/model.22/Concat_11_output_0: 3e30ea37
/model.22/Constant_16_output_0_output: 3e810a14
/model.22/Split_output_0: 3d810a14
/model.22/Split_output_1: 3e010a14
/model.22/Split_output_2: 3e810a14
/model.22/Squeeze_output_0: 3d810a14
/model.22/Squeeze_1_output_0: 3e010a14
/model.22/Squeeze_2_output_0: 3e810a14
ONNXTRT_Broadcast_152_output: 3b810a14
ONNXTRT_ShapeShuffle_365_output: 0
/model.22/Constant_59_output_0_output: 3c010a14
/model.22/Concat_28_output_0: 3e810a14
/model.22/Unsqueeze_7_output_0: 3f204a85
ONNXTRT_Broadcast_300_output: 3b810a14
/model.22/Reshape_17_output_0: 3e1d4449
/model.22/Range_1_output_0: 3f1f4871
ONNXTRT_Broadcast_208_output: 3d810a14
/model.22/Constant_23_output_0_output: 0
/model.22/Constant_24_output_0_output: 3c010a14
/model.22/Add_output_0: 3f204a85
/model.22/Expand_5_output_0: 3e1d4449
/model.22/Unsqueeze_11_output_0: 3e9f4871
ONNXTRT_Broadcast_537_output: 3c810a14
/model.22/Add_8_output_0: 3e810a14
/model.22/Reshape_9_output_0: 3f204a85
/model.22/Constant_76_output_0_output: 3c810a14
/model.22/Range_output_0: 3f1f4871
ONNXTRT_ShapeShuffle_139_output: 3c010a14
/model.22/Constant_25_output_0_output: 3b810a14
ONNXTRT_Broadcast_output: 3b810a14
